/**
  ******************************************************************************
  * @file    network_data_params.c
  * @author  AST Embedded Analytics Research Platform
  * @date    2026-02-17T19:11:12+0900
  * @brief   AI Tool Automatic Code Generator for Embedded NN computing
  ******************************************************************************
  * Copyright (c) 2026 STMicroelectronics.
  * All rights reserved.
  *
  * This software is licensed under terms that can be found in the LICENSE file
  * in the root directory of this software component.
  * If no LICENSE file comes with this software, it is provided AS-IS.
  ******************************************************************************
  */

#include "network_data_params.h"


/**  Activations Section  ****************************************************/
ai_handle g_network_activations_table[1 + 2] = {
  AI_HANDLE_PTR(AI_MAGIC_MARKER),
  AI_HANDLE_PTR(NULL),
  AI_HANDLE_PTR(AI_MAGIC_MARKER),
};




/**  Weights Section  ********************************************************/
AI_ALIGNED(32)
const ai_u64 s_network_weights_array_u64[2017] = {
  0x3cee0cad3e262383U, 0x3e8861eebcda3649U, 0x3d328982bd00f188U, 0xbe5a3649be5f2be2U,
  0xbe7a72ab3e465fe6U, 0x3e124d203e465fe6U, 0x3dfced783d8adcbaU, 0x3e9d75b83e300eb5U,
  0xbd00f188be00f188U, 0x3e23a8b73e57bb7dU, 0xbe5fba37be1742b9U, 0x3e3fc42fbbaa757fU,
  0xbcd512dfbe9a7a7bU, 0x3de50de33defb53bU, 0x3e0d294dbe8a7f77U, 0x3de50de3be9a7a7bU,
  0xbd8a7f773e4d155dU, 0xbea920943dca6b87U, 0xbe2fc92b3e0281f5U, 0xbe3273013e127cf9U,
  0xbe3273013baa757fU, 0xbde7248ebdb1637fU, 0xbc01028b3d7744e0U, 0x3e21432e3e51a422U,
  0xbcac03643e54542fU, 0xbe3c23b5be71e4c5U, 0xbc01028bbd7744e0U, 0x3da6a3493dd7043dU,
  0x3eaaab5d3dd1a422U, 0xbd01028b3e7744e0U, 0x3d6c84aabdfca4fbU, 0xbda48b803e0bc2c1U,
  0xbe3241cb3d814909U, 0x3cbc0d25bd8d09dcU, 0xbe14dfbdbe2680f9U, 0xbd6b106ebd94dfbdU,
  0xbe1cb59fbcac6162U, 0x3e596f32be519951U, 0xbe2c61623dd779baU, 0x3e2a6be93e47cdf7U,
  0xbe45d87f3ceb106eU, 0x3e76d1403e78c6b9U, 0x3d89660dbe351dccU, 0x3d69294d3e83273bU,
  0xbe419b70be8431b4U, 0xbe8431b43d79d0d2U, 0xbd79d0d23e75a6f1U, 0xbd3732bcbd89660dU,
  0xbdaab5183d15e3b2U, 0xbd0d8fefbb053c2cU, 0xbe64ff6cbce9294dU, 0xbe1c2284be717d10U,
  0x3e1ae15bbe8007d2U, 0xbda7c978bc09abdfU, 0xbe7987843dce81ceU, 0x3cbd4c53bd5fb74aU,
  0xbe6404a93e0337d1U, 0x3d237c193e38fef4U, 0xbe3f7302be12469dU, 0xbe7ffb93be36d844U,
  0x3d70ecc63d685208U, 0x3e889887bd34b195U, 0xbe878530be8337d1U, 0x3c81f35c3e3bf6dcU,
  0x3b9483d7bcb9a4cdU, 0x3e2bb8713d8b3b9aU, 0xbcf1563dbd5ec5c2U, 0x3e856e733e3500aeU,
  0x3dda21a4bcdec5c2U, 0xbd01f35c3da27033U, 0x3e24c243be04456bU, 0xbd9483d73e935acfU,
  0x3e8eb6b13e5c73b3U, 0x3e2fea7b3e1dcc14U, 0x3dd400523dafea7bU, 0x3e2fea7bbe008dd0U,
  0xbe8f36afbe099346U, 0xbe58830dbe3d72abU, 0xbddd05c83d3d72abU, 0xbe10575e3dd40052U,
  0xbe7a5787bca2624aU, 0x3e715211bdfc98e4U, 0xbd618883bd8bd4a3U, 0x3d6188833e02cf2dU,
  0xbe0da5eb3e10393aU, 0x3e96a97f3e396e26U, 0x3e1a86753d05ebffU, 0xbd6cf04d3ddd7c74U,
  0xbe31b43abce2a312U, 0xbdf216ea3cb96e26U, 0x3e90393abe29fa4eU, 0x3ea38a093e74aa39U,
  0xbe74aa39be0da5ebU, 0x3e31b43abe941630U, 0xbe0487313e1d19c4U, 0x3e06c63bbdfb942aU,
  0xbd9440743d21baadU, 0x3d9d3c9a3e5c21a5U, 0xbe0248283e090544U, 0x3dc12d32bdca2958U,
  0xbe848731be74d70dU, 0xbda1baad00000000U, 0xbcc5ab45be5e60aeU, 0xbe5c21a53d609fb8U,
  0x3e87e5c03e8ea2dcU, 0x3e2e1d5bbde48687U, 0xbde48687be56ec3cU, 0x3c2e1d5bbde9f772U,
  0xbe517b513da33b85U, 0xbe74d9483e61ce12U, 0xbe56ec3cbdbe701cU, 0xbe648687bd38ff31U,
  0x3d0d77da3ddf159dU, 0x3e1859b0bdd433c7U, 0xbde486873d233b85U, 0x3e621dbfbeacc120U,
  0x3dc3cfdc3d99da2dU, 0xbe6dc58c3e19da2dU, 0x3e2a2b803e487962U, 0xbdb5d34d3dedc58cU,
  0xbd43cfdcbd5fc8fcU, 0xbe5b1f773dd1cc6cU, 0xbca7d6bd3e0035d0U, 0x3e66c744be58cab4U,
  0x3e796d59be27d6bdU, 0xbe940647be8e3260U, 0xbe27d8f0beabe882U, 0x3c01f2463e226ed8U,
  0x3e5074a6be3d8151U, 0x3e1fb9cbbe485581U, 0xbe6e3c2b3e88b6e4U, 0x3df9105cbd381738U,
  0xbe9baa393d2d4308U, 0xbea3c95ebe075c5eU, 0x3d79105cbea3c95eU, 0x3d226ed83dee3c2bU,
  0x3de3bb033e381738U, 0x3e6b52503e33a771U, 0xbde8ca8bbe455dcfU, 0x3e6dda143dfd08aeU,
  0xbe4f7ce0be12c279U, 0xbe903ab53c8db2f1U, 0xbe4cf51cbe548c69U, 0xbea0ad313dac1024U,
  0xbe17d202bdbb3ebeU, 0x3db11fad3e2c1024U, 0xbd17d202be9915e4U, 0xbe1d7ff33daa786bU,
  0xbe33bc2e3dc4695aU, 0xbe2a786b3e24e95cU, 0xbdc4695abe4bd2c2U, 0xbe3b2597bdaa786bU,
  0xbd31e1d4be6b52c0U, 0x3e230f023d230f02U, 0xbe65c3b13d749683U, 0xbe3596883d81b4aaU,
  0xbe0ead223e091e13U, 0xbe6540d2be44695aU, 0xbe1b5c97bd979287U, 0xbd2e4ee8bd72840bU,
  0xbd5bc7aa3da2f0b7U, 0xbe5f91babe561892U, 0x3e709f03bdeeb9fbU, 0x3d086a463dc8d559U,
  0xbe2a84d8be1b5c97U, 0xbd635bca3e13c877U, 0x3bf2840bbbf2840bU, 0x3e35e308be6aefebU,
  0x3cdd9ec23e5d9ec2U, 0xbe3410febe7b4d2aU, 0xbdc5e009bc7d47b9U, 0xbe2047633cdd9ec2U,
  0x3e3a00acbe3a00acU, 0x3e301bdfbe6f6dcdU, 0x3d6d733d3d166296U, 0xbe1a57b5bd755d7bU,
  0xbe55b484bc3df5cbU, 0xbdf1685cbe6193e1U, 0x3d21ad98be3df5cbU, 0xbe950c08be65e2d4U,
  0x3dca18fe3e5e4eb1U, 0xbe89add3be2e4f28U, 0xbe2941bb3e24344eU, 0x3e086a783e3af0b8U,
  0x3e6af0413e950c08U, 0xbe1a19753ea06a3dU, 0x3e5433d83e00d655U, 0xbe85e3c2be9f26e2U,
  0x3e2bc8723df28464U, 0xbbacd9e83e277319U, 0xbe2f8d50be5d7731U, 0xbdd810623c2cd9e8U,
  0xbbacd9e83e1ca57aU, 0xbe173eab3e6dab9fU, 0xbcacd9e8bea77319U, 0xbc5810623d2cd9e8U,
  0x3dacd9e8beab8034U, 0x3d581062be1f58e2U, 0xbe47dbf4be19f213U, 0x3e8d9cb0be8456d6U,
  0x3e03400ebe6890f0U, 0x3e7661c8be518a30U, 0xbdef795c3dd8729dU, 0xbe7f97ae3d53d7aaU,
  0xbdaa651f3e135e60U, 0xbe53d7aa3e48544aU, 0xbe237cb23e8ec36dU, 0xbe0a287a3dd8729dU,
  0xbe61a883be9237a3U, 0x3c3835f83e8ec36dU, 0x3e49b60ebd2ead7eU, 0x3e051678bdbf504cU,
  0xbd4ff31cbe520775U, 0xbe4ddec2bded1006U, 0xbe3b2799bda23362U, 0x3dcff31cbcf98a21U,
  0xbe49b60ebdaead7eU, 0xbdd84483be840c4bU, 0x3e4379003dcbca68U, 0xbded1006be2ead7eU,
  0x3d9f4fd1bd15b947U, 0x3c67b9ea3b9a7bf1U, 0xbdf161a9be072c73U, 0x3e0996633db7732eU,
  0xbcadcb6f3dadcb6fU, 0xbd2dcb6fbd9f4fd1U, 0xbd90d4323d546a6bU, 0xbe73cb98be9946f9U,
  0xbe37732ebd825893U, 0xbe6c8dc93e4384ddU, 0x3e4384dd3e5ba83bU, 0xbe7ab3073e756be4U,
  0x3e8a8b5c3d893993U, 0xbe6d812f3e3b5d61U, 0xbe488f393e1bb28eU, 0xbdfd56993db8b9d0U,
  0xbe0bdd243e0e80b6U, 0xbe28e4663db8b9d0U, 0x3ea7929dbe488f39U, 0xbe7024c13e093993U,
  0xbe3b5d61be531d80U, 0xbdd1c7e43bfd5699U, 0xbe8ca6043e77ec3cU, 0x3e0ca604be568c6fU,
  0xbe7cb0c7be601585U, 0x3de015853e80baa9U, 0xbe4f659ebe97603dU, 0x3e352ca2bc857f34U,
  0x3e39f12dbe483eceU, 0xbdb9f12dbe07e17aU, 0xbdee6326be057f34U, 0xbe4f659ebe4d0359U,
  0x3dd7570fbe91f3e5U, 0xbe872f8bbe251814U, 0x3d78d661be16bcf1U, 0x3e35d7bdbe277c9aU,
  0xbd78d661be4432e0U, 0x3d2c45a63e7d9f6dU, 0x3e1dea83bdcdc4f8U, 0x3e97ef343e0398c2U,
  0xbbe5b232bcd28e04U, 0x3e6816b8be6f444aU, 0x3d6d8c723e0861ceU, 0xbe62f19b3e1ad4afU,
  0x3e4fdae43de94e82U, 0xbe86ae7cbe782749U, 0x3dcfdae4bdc75f04U, 0x3d3aa535be1258cfU,
  0x3b07bdf83d07bdf8U, 0x3d2131963de51092U, 0xbc4b9cf4bd9477c7U, 0xbd9039d8be41021dU,
  0x3de0d2a3be45400cU, 0x3dc2532fbc05405bU, 0xbdac1dcbbd269072U, 0xbe3f8c833dd88894U,
  0xbcf44b52be4aa735U, 0x3d3cc5d63e29571eU, 0x3b31ab243e1b75c0U, 0x3e86a3b13df9d8abU,
  0x3e79d8ab3e811658U, 0xbeb047cebdf9d8abU, 0x3e9e3c6cbe1b75c0U, 0xbe1a6fd6bd05405bU,
  0xbe03a6aebddecb4eU, 0x3cf30c56bd4a8a47U, 0x3e24905a3dac28bdU, 0x3e4069c4be88b6f0U,
  0xbea0c429bc4a8a47U, 0x3e0dc732be2c28bdU, 0x3d3649403d54aacbU, 0xbe1f8018bd54aacbU,
  0x3d730c563d92d774U, 0xbe97e7b53e5ecb4eU, 0x3e4b0f883e83bf69U, 0xbe37b8b8bd075fb0U,
  0xbd910b183d110b18U, 0x3c6811c0be998113U, 0x3c9ab6803d2e0d50U, 0x3e71bd28bdc639d4U,
  0xbdae0d503dc639d4U, 0x3d95e0cc3e0c3564U, 0xbd910b183d4b0f88U, 0x3e7428023dc16420U,
  0xbe62fa3e3d54baf0U, 0xbe773407U, 0x3cd7bdb23c8fd3ccU, 0xbe8eb424be38475dU,
  0x3daacb82bd2acb82U, 0xbe0257f1be318970U, 0x3e14526a3e4ec075U, 0x3e33c8bfbdb3c8bfU,
  0xbd7bb2a5bd06d68fU, 0x3e45c338bc0fd3ccU, 0xbe36080e3de5398dU, 0xbe3f74e33cf86049U,
  0x3b259586bdc9ce3bU, 0xbba59586bc259586U, 0xbe709d47bdc4a18fU, 0x3e2595863dee06f1U,
  0xbe595440be7d8cf5U, 0xbe8a6afe3dc9ce3bU, 0xbba59586be1dd284U, 0x3ea44a5b3dcefae8U,
  0x3d595440be015cd1U, 0xbd6d3e01be0bb629U, 0xbd7806a4bdc77fc6U, 0xbe3752d23d96f8e9U,
  0xbdf806a43e8572e0U, 0xbe8572e03e4ce418U, 0x3db752d2bdcce418U, 0xbe19ab1200000000U,
  0x3ea87ef2be4f9641U, 0x3e75547b3e6ff029U, 0x3bac8a2fbeab311bU, 0xbdac8a2fbe097e1dU,
  0xbe7d53b43e40cc2aU, 0xbe08c0713d7b15cbU, 0xbdd2bb6fbe4547fbU, 0x3e80e7c3bc573740U,
  0xbe3358b6bd93f5fcU, 0x3e311acdbe626cccU, 0xbc3358b63e8206b7U, 0xbe8e5b37bb0f7a2bU,
  0x3e0afe5a3e6b646fU, 0xbdaa6113bcfb15cbU, 0x3e07a7f73e1f2b88U, 0xbdea50aabde6344eU,
  0xbc838b9abe6217f1U, 0xbd76a5c1be6009c2U, 0xbe160b3c3bc55167U, 0xbb038b9abe53b4acU,
  0xbe11eedf3d4d8a21U, 0xbdc96dc4bcc55167U, 0xbe807654bd0bc454U, 0xbe8284833ce6344eU,
  0x3e68427c3d9c35c7U, 0xbe3cca82bbcdf431U, 0xbe6e2259be4114eeU, 0xbd91e24dbe501967U,
  0xbd00b89fbe4114eeU, 0xbe0d97e2bdc9a9c5U, 0x3e0fbd183d894d76U, 0xbe883adbbe5f1de0U,
  0xbe501967be3435abU, 0x3caba0d4bd80b89fU, 0x3e58ae3ebe5cf8aaU, 0x3e9510893e253132U,
  0x3e4a4d4c3d9fb649U, 0x3e3cfe1bbddf98cdU, 0xbe9267193e1a6369U, 0xbe67951ebe3cfe1bU,
  0xbe579c7dbdca4d4cU, 0xbe0fbda8be579c7dU, 0x3e17b9f93daa5c0aU, 0x3ea907523e37ab3bU,
  0xbc951089be3fa78bU, 0x3e6f916ebc54f30cU, 0xbd88baf23e493055U, 0x3e4354353e202b73U,
  0xbd241388be45483fU, 0xbe60a0d63e493055U, 0x3e3b840a3e5ac4b6U, 0xbe41602a3e1a4f52U,
  0xbe54e895bd2be3b3U, 0xbdd6dca0bd52f48bU, 0xbda413883e781157U, 0xbdd2f48b3e33b3deU,
  0x3d54de40be6488ecU, 0x3e45a9cebbb6755cU, 0xbe19f3053dbe0f95U, 0x3e5111243e5a91ebU,
  0x3dba4278bd45a9ceU, 0xbe2740e9bdd4de40U, 0x3dc5a9cebe2740e9U, 0xbdb6755c3d5c787aU,
  0xbe56c4cf3e218d3fU, 0xbe7160973dd4de40U, 0xbd5c787abe2edb23U, 0xbd1e60693e0db494U,
  0xbc855ea93d376228U, 0x3c6965a83e3fb813U, 0xbdd8b9d33e75e688U, 0x3d055ea93e8453ecU,
  0xbdaae1493e3da298U, 0xbe3977a33e4a2378U, 0x3e0fca0e3e3fb813U, 0x3e653ab2bd8db494U,
  0xbe3b8d1ebcb76228U, 0x3dac600f3e13f503U, 0x3d450012bde5d56aU, 0x3e17dab8bb835561U,
  0xbde1babfbd9bf563U, 0x3e307ababe3ed811U, 0x3dc0e5663d242ab9U, 0x3e515013be824eb6U,
  0xbd2c600fbd8b8ab7U, 0xbe6bfd6a3d4d3568U, 0x3df64016bcc50012U, 0x3d5da0143e764016U,
  0x3e7ef908bd70eb4eU, 0x3e58d3c63dd0cbeeU, 0x3e24a0cbbd30ac8fU, 0x3e72ed443e6ce762U,
  0xbe1a96fd3e46c220U, 0x3e58d3c63e74ef3aU, 0xbe32ae85bb007d7fU, 0xbca09cdf3c40bc3eU,
  0x3e50cbeebd807d7fU, 0x3d908d2f3db4b07bU, 0xbc23bad33e088557U, 0x3e14614fbd7fd3eaU,
  0xbc75983c3dc26ddbU, 0xbe30856b3e16f03bU, 0x3dcca988be6b5c8fU, 0xbea2735dbe1c0e11U,
  0xbe35a3423e331457U, 0xbe30856bbe9d5587U, 0xbe51c75ebe908aeeU, 0x3e3d50043e597420U,
  0x3db8322dbc4ca988U, 0xbdbb8ba9bce10dfeU, 0xbdce4cd4be83482aU, 0xbe5a058e3cce4cd4U,
  0x3d322b143d6a6e93U, 0x3d4e4cd4be429419U, 0x3e86cc613c3b8ba9U, 0x3e94dd413de10dfeU,
  0xbe0f00e4bcbb8ba9U, 0xbe1f69e93d0ca8bfU, 0x3e1ab99f3e6cc6b9U, 0x3df919833c960954U,
  0x3d740418bdc12de8U, 0x3e2a4d863e1d97faU, 0x3d69d941bd5fae6bU, 0x3e4de3743ba2ad65U,
  0x3e6c63f73dfe2eeeU, 0x3e31eda6be136d24U, 0x3c7404183ea1680aU, 0x3d042ce2bca2ad65U,
  0x3e3ea332bdda9900U, 0x3dd06e293e580e4aU, 0x3da3d3fb3e91e8ccU, 0xbdf5bdf8be14781bU,
  0x3e0cca2cbbf5bdf8U, 0x3e599589bdfadc98U, 0x3d7ffb38be851c3cU, 0x3e17076bbdfffb38U,
  0x3d1996bb3d75bdf8U, 0xbe07ab8c3e784d48U, 0xbea28c53bd9996bbU, 0x3d428bba3d9996bbU,
  0xbe3544a53e30a08bU, 0xbd5043fabdbcfb50U, 0xbe373250bd76d54eU, 0xbdbcfb50bdeb434eU,
  0xbe2ba050be0eb351U, 0x3e3cfb503d1a4551U, 0x3def1ea4be5231a4U, 0xbe128ea63e657a4fU,
  0x3e3cfb50be2ba050U, 0x3e74e7a3bd488d4fU, 0xbd8321513e710c4eU, 0xbe1c2a9d3daa5d08U,
  0x3d59afc43d33d3fbU, 0xbe59afc4bdec9da8U, 0x3b976f24bce326b6U, 0x3d176f243d0df832U,
  0xbe54f44bbe964046U, 0xbe848140bde326b6U, 0x3e27ff4c3dff8b8dU, 0x3e27ff4cbe491f9cU,
  0xbdec9da8bd893cb9U, 0xbd50c0343dde6b3dU, 0x3e40de1abd95c189U, 0x3e0ef2ec3e8155b1U,
  0xbe750e27be90155bU, 0xbe88244ebe8cae0dU, 0x3c9137cbbe7e21a3U, 0x3e7084683ca35ec4U,
  0xbd3e993a3d88244eU, 0xbe2119e53cc7acb7U, 0x3e708468bd7e21a3U, 0x3e05df6f3de2e72dU,
  0x3e7c5a553e261410U, 0x3e513733be6d413cU, 0x3d8a0a07be6b1914U, 0xbe88f5f33e16faf8U,
  0x3dfa322dbc9b4b48U, 0xbdfa322dbe444642U, 0xbe84a5a3be6d413cU, 0xbc0a0a07be780a05U,
  0x3b8a0a07bda83c39U, 0x3dbdcdca3e7a322dU, 0x3ca547373ccf0f0aU, 0x3e557bfc3deebc33U,
  0x3d1c1898be91c424U, 0x3e3e876e3e30c17eU, 0x3b92e9f83c37a476U, 0xbd77ead2be6c708bU,
  0x3b92e9f8be6341ecU, 0x3df7ead23dd7c7a4U, 0xbe889585be3c3bc6U, 0x3e076fb1be3558ceU,
  0xbe29de873e83fe35U, 0xbd53751a3e6824bbU, 0xbe89e832bcca437dU, 0x3e73a2bfbb1319cfU,
  0xbd8e81013dbc7911U, 0x3e4111e03e6824bbU, 0xbe1566363d257d09U, 0xbd2eaea6bc5ca6b6U,
  0x3e156636be91f39bU, 0xbd89e832be854f64U, 0xbe580de83e1c4b6cU, 0xbdfd7c063e334774U,
  0x3dc364ef3e265964U, 0xbbfd7c06bd894dd8U, 0xbe0161f83d338d2fU, 0x3d894dd83e7ad810U,
  0x3e2ba14e3e1139b8U, 0x3c28fd59be1681a3U, 0x3e9fbf7e3e1e6d83U, 0x3ea7ab5e3e363124U,
  0x3d8405ee3e1139b8U, 0x3e2e45443e4364efU, 0xbd9e9adcbcfdc492U, 0x3e16acb73e8822c9U,
  0xbe018700be50d46eU, 0x3dbe536e3dd8c292U, 0xbe3baeb7be940800U, 0x3dc39cdcbe33c092U,
  0xbd33c092bde3556eU, 0x3e16acb73c292db7U, 0x3c537925be0ebe92U, 0x3df87b25be6b4392U,
  0xbd204354bea7db5cU, 0x3d204354be384d6eU, 0x3c0035ddbcb04a10U, 0xbdf8685c3e063863U,
  0x3bc050ccbe163f1fU, 0x3c903c99bc8035ddU, 0x3e545936bdf064feU, 0x3d6861a1be7e6ae3U,
  0xbe08393bbd605e43U, 0x3e505787bddc5c94U, 0x3d2846b2bdcc55d8U, 0xbe840b8a3e28d832U,
  0x3d9332a23d4fcf03U, 0x3d9bdb42be8974eeU, 0x3dbe7dc3be8635b2U, 0x3dee1d333e749bacU,
  0xbe202f92bcbe7dc3U, 0xbe4fcf03be3c539bU, 0x3e4da4dbbe37ff4bU, 0x3e2f56abbe2b025aU,
  0x3e612043be0a8a02U, 0xbe4dc6343bcfcf03U, 0xbe08534f00000000U, 0x3de77efabdfc12ccU,
  0x3de25a06be369fe8U, 0xbe3bc4dc3d9f799cU, 0x3e899c8cbe5058aeU, 0xbd6ca3ef3e870a12U,
  0x3e27310abdf6edd8U, 0x3dc8a140bddd3512U, 0x3d85c0d5bea35553U, 0xbd625a063e990b6aU,
  0xbe91ab763e9439b2U, 0xbd99562bbe19562bU, 0x3d2dc80f3e5e568bU, 0xbe660141bd60e4c8U,
  0xbd9e72a4be6dabf6U, 0xbdc239f2be49e4a8U, 0x3e7f8f9dbe28ab96U, 0x3e593a13bd8f1d39U,
  0xbb238f1d3ea247ffU, 0x3e877284be04e448U, 0x3d5ccec63d4239f2U, 0x3e0d1254be5ac361U,
  0x3e3e23d53e81d3a6U, 0xbe31df75be1b621aU, 0xbd33eadabe2bbd45U, 0x3dd8b7fb3e1f78e4U,
  0x3e755787be46516bU, 0x3cb3eadabe1d6d7fU, 0x3d86f0243c933484U, 0xbc238faf3e2fd410U,
  0x3e35f6403e54a131U, 0xbd97bfdfbd2d6d92U, 0xbe89a8923d97bfdfU, 0xbe67f5bfbe2d6d92U,
  0xbe843d25bd501d15U, 0xbe45463c3d72cc98U, 0xbdffce6a3e499c2cU, 0xbd02122d3e843d25U,
  0xbe4bc7253e3a6f63U, 0x3e3ec5533dd8c8f6U, 0xbc9c15d03e6174d7U, 0x3d8dbbf13e2d6d92U,
  0xbe42e26bbd3a06acU, 0x3e42e26b3e8ca079U, 0xbe37cfbdbcd499eaU, 0xbe0717223e18cea0U,
  0x3d1697b03e8a6989U, 0x3e8a69893e5499eaU, 0x3d6f2d273e0dbbf1U, 0xbdf808e6be45195bU,
  0x3e42e26b3d5d75a9U, 0x3e75d1f6bc9f736fU, 0x3e750d50be4e5c0dU, 0xbe876c69bdaf67d8U,
  0xbd4e5c0dbe3724e5U, 0x3dc40aa63e251671U, 0xbe27aacb3dc9335aU, 0xbd86223cbe8243b5U,
  0xbb2516713e4e5c0dU, 0x3b2516713b251671U, 0x3e1073a3bea3cc44U, 0x3c251671bdaa3f25U,
  0xbdcbbf13bd1073a3U, 0xbe01a8233d427c35U, 0xbe26b39b3e852136U, 0x3e11dd283e01a823U,
  0x3e03f8db3d01a823U, 0x3ccbbf133e6536f5U, 0x3de2e63d3e6c291bU, 0x3e4e0fcabe506082U,
  0xbb142ddf3e930583U, 0xbe1d70bdbd427c35U, 0x3e1d70bd3e393957U, 0xbe2b436a3dd40a52U,
  0x3d92cc113c2dfb57U, 0x3da88b7c3cadfb57U, 0xbe2b436a3badfb57U, 0x3c983becbe2063b4U,
  0xbe61a1f5bd92cc11U, 0xbd4e9a77bd38db0cU, 0x3e30b3443e6f3998U, 0xbea1bfab3e336b32U,
  0xbd7a194d3db36b32U, 0xbd9736233eac9f60U, 0xbe01f286bd33904aU, 0xbe6ea16fbe844f5fU,
  0xbe2a1ce7be1e4cadU, 0xbe3f6084be3d03acU, 0xbda0a9853c173623U, 0x3c844f5fbd927c72U,
  0xbe93aadebcbd03acU, 0xbe9607b73d46770eU, 0xbe5e1783be173623U, 0xbdb3904abd33904aU,
  0x3db7f0593d4ea82dU, 0xbce3a10c3d05e8ddU, 0x3d6e948b3c7bc7c3U, 0x3cf9870b3d3202ccU,
  0x3d6561603d92a8d8U, 0x3d958ce43da923b8U, 0x3dc2b4963d98fb7fU, 0xbd0f65183d988c3aU,
  0x3d97f705bcbd79a1U, 0x3d4bf7ed3d9d4c47U, 0x3d5a433cbd3d0692U, 0x3d76f0103d2dd1bbU,
  0x3cd744993d96ec13U, 0x3daf6bc13dafd58eU, 0x3d0664ecbc0d3fc2U, 0x3d46a1673d85b15cU,
  0x3d1eac3b3d5a23ddU, 0x3da77530bcea307dU, 0xbcee14d3bd378a98U, 0xbcd2e4b53d2eb93aU,
  0x3db6952c3ccdac81U, 0x3d0eb8ea3c38f386U, 0xbc6ecd6d3d9224daU, 0x3d55790b3d662082U,
  0x3d04b5c8bbb6a971U, 0x3d25bb3f3ce07f5aU, 0xbc51b1cc3d86e83fU, 0x3d2f4793bc370427U,
  0x3a684e1f3d34bb42U, 0x3cd9b100bb1849a1U, 0x3a9d13da3d9db016U, 0x3d7900133d97444fU,
  0x3e3c35e23e4947d9U, 0x3e9262cc3e87ee07U, 0x3d707dbd3e1262ccU, 0xbd9262cc3e636bc6U,
  0x3d07ee073e9e262aU, 0x3e8d28693e417045U, 0xbd5b9432be81650bU, 0x3d5b94323de608f8U,
  0xbe24af26be46aaa7U, 0xbd9cd792be7d8fb4U, 0xbe0d28693dc17045U, 0xbd82b3a4bda74c57U,
  0x3e53bc9e3d274c57U, 0xbe36fb7f3e2c86baU, 0xbe14fffdbb274c57U, 0xbd707dbdbe14fffdU,
  0xbe1cd7923e53bc9eU, 0x3e801673bdfaf282U, 0xbbfaf282bdfaf282U, 0x3dcbe50abdb6fb7fU,
  0xbe2211f4bbfaf282U, 0x3e869f6ebdc6aaa7U, 0xbe02b3a43ea5fdbeU, 0xbd8d2869be179d2fU,
  0x3e0550d5be2c86baU, 0x3deb435a3d3c35e2U, 0xbe345e4ebe24af26U, 0x3e8e77023d31c11cU,
  0x3e7d8fb4bc7af282U, 0x3e731aeebd07ee07U, 0xbdbc35e2be75b820U, 0x3da211f43ca74c57U,
  0x3e263d4b3e2b20faU, 0xbdb9cc08be28af22U, 0x3e523e75bdcd5ac6U, 0xbcfe3fa03e28af22U,
  0xbc6ab0e2bdab20faU, 0xbe1ee7c43dd72224U, 0xbdfe3fa03de5cd33U, 0xbcc393673e8dcadeU,
  0x3e0b59063da1599bU, 0x3dd23e753e952065U, 0x3e5722243e04037fU, 0x3e9520653cd72224U,
  0x3e6ab0e23e8b5906U, 0x3df95bf03e5993fcU, 0x3e8f03ca3e60e983U, 0xbd92ae8d3e82ca93U,
  0xbdab20fa3dfe3fa0U, 0x3e04037fbe2b20faU, 0x3d12ae8dbe23cb73U, 0xbdc877163e8b5906U,
  0xbd08e72e3e4d5ac6U, 0xbe3eafb8bde0e983U, 0x3d572224bd4d5ac6U, 0xbdd722243e747841U,
  0xbd08e72e3e327681U, 0x3e5e77ac3d97923dU, 0x3e93e7793e6ab0e2U, 0x3e2b20fabdb4e859U,
  0x3e0191a73e8058bcU, 0x3e3276813d84037fU, 0x3e9175a1bdb4e859U, 0x3e9b3d003da63d4bU,
  0x3df098963e3bf735U, 0xbdc87f27be22e750U, 0x3d7a9ef1be2568e7U, 0x3e528583be04d43dU,
  0xbe2cedab3dc87f27U, 0x3e45fd903daa6c15U, 0x3e9f24ee3d915c30U, 0xbe2a6c1500000000U,
  0x3dd285833e781d5aU, 0x3d0c5902bd8c5902U, 0x3e2a6c15bdcd8255U, 0x3e8c59023e3bf735U,
  0x3e0c5902bd7a9ef1U, 0x3df09896bca065b9U, 0xbde6923abdffa21fU, 0xbc2065b93cb47270U,
  0xbdeb95683e901b64U, 0xbc2065b93e5788b1U, 0xbe2cedab3e40fa63U, 0x3d9b628bbe3e78ccU,
  0x3e36f4073e8d99cdU, 0xbd915c30be3bf735U, 0xbe0755d4bd965f5dU, 0xbc8c5902bdffa21fU,
  0x3e9f24eebe1de422U, 0xbe4b00be3e115c30U, 0xbe39759ebe31f0d9U, 0x3d3472703c8c5902U,
  0xbbf09896be2568e7U, 0xbe5a0a47be0eda99U, 0xbe2cedabbe115c30U, 0xbdd285833e2065b9U,
  0x3cc6b595be201246U, 0xbd84790e3d3bab7eU, 0x3e7862fa3e3bab7eU, 0xbd46b595bcdcc9c2U,
  0x3d9a8d3bbe5cc9c2U, 0x3e4efd263c84790eU, 0x3eaf40253e8f8324U, 0xbdb626733ea17389U,
  0xbe3363eebe1d4fc1U, 0x3e30a1683d30a168U, 0x3e89fe193e259752U, 0x3e5744b73e04790eU,
  0x3e0cc09f3d950830U, 0x3d72ddefbd04790eU, 0xbdf2ddefbd72ddefU, 0x3df2ddef3e8b5f5cU,
  0x3c9a8d3b3e651153U, 0xbe966973bd84790eU, 0x3e3bab7ebcf2ddefU, 0xbd3bab7e3da01246U,
  0x3e992bf83de24ecdU, 0xbdd744b73e01b688U, 0x3e950830bc30a168U, 0x3df2ddef3e7862faU,
  0xbd9a8d3bbe0cc09fU, 0xbde7d3d83bb0a168U, 0x3e85da513e72ddefU, 0x3cc6b595bd04790eU,
  0xbd8f83243e09fe19U, 0x3d2597523e3e6e04U, 0xbc9a8d3bbd7de806U, 0xbd89fe19be073b94U,
  0xbdb38cb8bd3cffeaU, 0xbb173322bdbcffeaU, 0x3d595981bc173322U, 0xbe06a98a3e6e9cb2U,
  0x3d9becbb3e27bcbaU, 0xbe312fec3e595981U, 0x3dcb2cb63e8c918aU, 0x3df0f97e3daed31fU,
  0xbdaa19863e338cb8U, 0xbe6c3fe53e2ed31fU, 0xbdff2649be1e4988U, 0x3e0dbff0bd8dbff0U,
  0x3da0a6543e0dbff0U, 0x3d46731dbc973322U, 0xbe20a6543c3cffeaU, 0x3e2c76533e46731dU,
  0x3e3cffeabdaa1986U, 0xbda55fed3dd95981U, 0xbe0dbff03d62ccb3U, 0x3d75b3173ce2ccb3U,
  0xbcaa1986be044cbeU, 0x3e2c76533d3cffeaU, 0xbe3aa31e3dcfe64fU, 0xbe3aa31e3e06a98aU,
  0xbdfa6cb03df0f97eU, 0xbe5bb64dbde7864cU, 0x3c62ccb3bd75b317U, 0x3e5e131abe3cffeaU,
  0xbd62ccb3be3f5cb7U, 0xbe06a98a3cf5b317U, 0x3e4fe64f3daa1986U, 0x3dc6731dbe9604bcU,
  0xbcbacc773e627e50U, 0xbde0288e3e8f99fbU, 0xbe3acc773e1ec765U, 0x3e0518153e627e50U,
  0x3e6bd5563e317571U, 0xbd697f94be851815U, 0x3c15705fbe2a742cU, 0x3d281e6bbde4d411U,
  0x3e6729d33e59274aU, 0x3e697f94be77821dU, 0xbe41cdbbbe5b7d0cU, 0x3d02c2533d95705fU,
  0x3e33cb32bdf2d69aU, 0xbd1ec7653e8642f5U, 0xbd90c4dc3e5dd2cdU, 0x3e6bd55600000000U,
  0xbb15705fbd317571U, 0x3db175713e64d411U, 0x3de0288e3c95705fU, 0xbe5dd2cd3dc4237dU,
  0xbe3f77fabe48cf00U, 0x3e3acc773e806c92U, 0xbdacc9ee3e15705fU, 0x3e90c4dcbde0288eU,
  0x3d697f94bdf2d69aU, 0x3d56d189bcbacc77U, 0xbe3620f43e2f1fafU, 0xbcbacc773d4d7a83U,
  0xbdc4237dU, 0xbe076dd63ca81e6bU, 0xbe211d263d9a1be2U, 0xbdbf77fa3e94457eU,
  0xbe075bc93bb9a273U, 0x3e56a3d5bd2a2a3fU, 0x3e2e084cbe2e084cU, 0x3e5892dc3dff3f5eU,
  0x3e264c323e680b10U, 0x3d12f5f0bcf78344U, 0xbe4cf8b43e1ab20aU, 0xbdf3a5373e3b917aU,
  0x3e245d2b3e33d55fU, 0x3e2ff752be264c32U, 0xbe6dd823be69fa16U, 0x3dd892dc3e5c70e9U,
  0x3e54b4ce3d415e8dU, 0x3debe91d3e472ba1U, 0xbe415e8dbddc70e9U, 0xbdc53c9abdccf8b4U,
  0xbc7783443e623dfcU, 0x3e491aa7be604ef6U, 0xbd5892dcbdefc72aU, 0xbe245d2b3e1ca111U,
  0xbde04ef63e3d8080U, 0x3d12f5f03e75943dU, 0x3e207f1e3af78344U, 0x3e37b36c3da26e25U,
  0x3bf78344bd92f5f0U, 0xbda64c323e0d28ddU, 0xbd9ab20abd92f5f0U, 0x3e661c093e6be91dU,
  0x3cc91aa73d39a273U, 0xbe075bc93e56a3d5U, 0x3e2ff752bddc70e9U, 0x3daa2a3fbc9ab20aU,
  0x3c8fded83e0fded8U, 0x3dd2aae03e0074aeU, 0xbd0fded8bca46c64U, 0x3db3d68d3da46c64U,
  0xbd57ce433d4d877dU, 0x3d9f49013e3b8ba2U, 0xbe4af5cbbdb8f9f0U, 0xbe33d68d3e5a5ff5U,
  0x3e8d4d26bda46c64U, 0x3db8f9f0bcb8f9f0U, 0x3d8abb74be7e57abU, 0xbd4d877dbde7386dU,
  0xbd62150a3e1a259eU, 0xbde7386dbd9f4901U, 0x3e030660bd246c64U, 0x3dbe1d54bc76a296U,
  0xbe2eb32a3e8abb74U, 0x3ea3238bbdaeb32aU, 0x3d9f4901be62150aU, 0x3e4340b73dcd877dU,
  0xbdd2aae0bd9f4901U, 0xbda46c643e21dab2U, 0xbd8fded83da46c64U, 0xbe0829c3bdfbc5f9U,
  0xbd62150abcb8f9f0U, 0xbd9a259ebe21dab2U, 0xbe5f83583e246c64U, 0x3e8fded83ddcf1a6U,
  0x3ba46c643dbe1d54U, 0xbdd2aae03dd2aae0U, 0x3e45d2683c246c64U, 0xbe15023b3e8829c3U,
  0x3d354713be033011U, 0x3e3ed18d3da6f75bU, 0x3d0592b03e2494bdU, 0x3dfcd5a8be51e682U,
  0x3dc396cabe2bbc98U, 0x3d51e682be734b2dU, 0x3e2bbc98be69c0b3U, 0x3e41342c3d3ed18dU,
  0x3d64fb763e117fc8U, 0x3ddb70fcbe033011U, 0x3ce4fb76be0f1d2aU, 0xbdfcd5a8be3081d6U,
  0xbe26f75b3e9513b6U, 0xbdabbc983e1fcf80U, 0xbcabbc983e7f3846U, 0x3e8f1d2abdbed18dU,
  0x3d2bbc98bd22321eU, 0x3e81fec2be3a0c50U, 0xbd51e682be07f54eU, 0x3e2959fabc3ed18dU,
  0xbe2494bd3e3ed18dU, 0x3d22321e3df8106aU, 0x3e32e4743e977655U, 0x3e51e682be485c07U,
  0xbe6e85f03e0a57edU, 0x3e93e267bde4fb76U, 0xbe3ed18d3c64fb76U, 0xbe3c6eee3e3081d6U,
  0x3d78106a3e7a7309U, 0x3e6298d7bdf34b2dU, 0x3d2bbc98bd98a7a4U, 0x3d0592b03dabbc98U,
  0xbe50d57b3e6a67c9U, 0x3d7730f03d4c926eU, 0xbe7b73fd3e50d57bU, 0x3e6624bc3e2a7a07U,
  0xbdea67c93e2a7a07U, 0x3e37432ebe8750dcU, 0xbe3fc948bdc40c55U, 0x3df2ede3bde624bcU,
  0xbe10e7b93e10e7b9U, 0x3db300213e1fd266U, 0x3e5d9ea2bc08619fU, 0x3e2636fabe2a7a07U,
  0x3e5d9ea2be41eaceU, 0x3d841e92be1fd266U, 0xbc4c926ebe041e92U, 0xbe3b863b3e2a7a07U,
  0xbe8640193e3b863bU, 0x3e0a8325be0ca4acU, 0xbe4eb3f53e5fc029U, 0xbe7730f0be064019U,
  0x3e3b863b3e4eb3f5U, 0x3d88619fbe0ec632U, 0x3d10e7b9be484f62U, 0x3d7730f03e196dd3U,
  0x3ddd9ea23d551888U, 0xbdf730f0be81fd0cU, 0x3d5518883dea67c9U, 0x3b88619fbdd51888U,
  0x3e152ac6be21f3edU, 0xbe2858803e61e1afU, 0x3e2a7a07bde1e1afU, 0x3dbb863b3e241573U,
  0xbdec0332bb0bdbf8U, 0xbd7d7eb2bdfd7eb2U, 0xbe5cb723be51c9f4U, 0x3e791fd23e729182U,
  0xbcc04e753e8ac440U, 0xbe427de5be7d7eb2U, 0xbd903ad8bddee693U, 0xbe09ac883e5a87b4U,
  0x3e8435f0be3e1f05U, 0x3e866560be16c927U, 0xbe634573bdb331d6U, 0x3e0e0b683de7a453U,
  0x3e0e0b683c9d5777U, 0xbc9d57773e23e5c7U, 0x3e427de5bbd1c9f4U, 0x3e76f062be4f9a84U,
  0x3e031e383e490c34U, 0x3e2ed2f63d98f897U, 0x3d3790b63d404e75U, 0x3e39c0253d0bdbf8U,
  0x3da615363dec0332U, 0xbd5a87b4bd261536U, 0x3daed2f6bce34573U, 0x3dda87b43d2ed2f6U,
  0xbe103ad8bdf4c0f2U, 0xbd634573be404e75U, 0x3e5858443e2844a6U, 0x3e4d6b143dc4ad55U,
  0x3e4b3ba400000000U, 0xbe310266bd9499b8U, 0x3e5a87b43de34573U, 0x3daa7416be2844a6U,
  0xbe2d51b63e131eaaU, 0xbe00fb523e02ff3fU, 0x3e3969463d213a26U, 0xbe2f55a33e57a42dU,
  0x3d85032d3d315991U, 0xbe73db273e539c53U, 0x3e539c533e152297U, 0xbdd198653de1b7d0U,
  0x3cb15991be213a26U, 0x3db96946be131eaaU, 0xbe02ff3fbca13a26U, 0x3d315991bcd19865U,
  0xbd69c7853e2f55a3U, 0xbdf5df14bd9d324cU, 0xbe7ff2b73e315991U, 0x3e3d7120be71d73aU,
  0x3d315991bd61b7d0U, 0xbe1f3639bdddaff5U, 0xbe6bcb72be5bac08U, 0xbe4988b03e254201U,
  0x3e090b073d519865U, 0xbe4784c33e172684U, 0xbdb969463e1d324cU, 0x3d992a713dd5a040U,
  0xbd992a713d090b07U, 0x3dcd908bbe2745eeU, 0xbde5bfaa3e7ff2b7U, 0x3e57a42dbe59a81aU,
  0xbe63bbbd3e7beadcU, 0xbd4988b0bdad51b6U, 0x3d61b7d0be2b4dc9U, 0x3e2f55a3be111abcU,
  0x3e98cc62bd10605dU, 0xbe1a0063be53c088U, 0xbdcef0853db21072U, 0x3e40807c3cfa40a1U,
  0xbe06c057bdc0807cU, 0x3e1ed0663e347874U, 0x3da8706cbd953060U, 0xbd4a20823e7a40a1U,
  0x3cfa40a13e70a09bU, 0xbe8324543c40807cU, 0x3e42e87dbcc0807cU, 0x3e58908b3cad406fU,
  0x3e0df85b3e2ad86eU, 0xbd1a00633d1a0063U, 0xbd1a00633e394877U, 0xbe6700943e153060U,
  0x3cad406f3e2fa871U, 0xbe45507f3d23a069U, 0x3e696896bd40807cU, 0xbe0458553e7f10a4U,
  0xbdca2082bc9a0063U, 0xbde70094bd86c057U, 0x3df5709ebe6e3899U, 0xbe623091bdebd098U,
  0xbe3478743d40807cU, 0xbe5af88d3e979861U, 0x3e623091be321072U, 0x3cfa40a13df0a09bU,
  0xbe3e187abda3a069U, 0xbe81f0543e045855U, 0x3d90605d3e2fa871U, 0x3debd0983d86c057U,
  0xbd21e7963e092b50U, 0xbdee5c0e3e8daaa3U, 0xbc7bda05bd9d6843U, 0xbdca617bbcd7df72U,
  0x3dca617b3e5a1f1bU, 0xbb8fea4c3e06eba7U, 0x3d7bda05be1b289aU, 0x3da666e8bd98e8f1U,
  0x3e8eca773e631dc0U, 0xbdaae63abd21e796U, 0x3c0fea4cbdbce384U, 0xbdfbda053e4ee0cdU,
  0xbdfbda05bd9d6843U, 0xbc0fea4c3e8c8aceU, 0x3e0fea4cbe2ae63aU, 0x3dc162d63df2db60U,
  0xbc0fea4c3ca1e796U, 0x3e5c5ec4be512076U, 0xbdd7df72be512076U, 0xbdf75ab3be57df72U,
  0x3cc5e2283e559fc9U, 0x3e751b093e31a536U, 0x3e0b6afa3df2db60U, 0xbe28a691be362488U,
  0xbd86eba7bdf75ab3U, 0x3e092b50bdca617bU, 0x3dc5e228bdd7df72U, 0xbe2666e8bca1e796U,
  0x3da1e796bc57df72U, 0x3e4162d6bd4ee0cdU, 0x3e559fc93de9dcbcU, 0xbd21e796bd2ae63aU,
  0xbdcd007c3e0cf055U, 0xbda24b0c3e2f1b14U, 0x3e469878bdcd007cU, 0x3e79d8973e8799a7U,
  0xbe2ad5bc3e4addd0U, 0x3e77b5ebbd08aafdU, 0xbdd145d33e135859U, 0xbd957b05bd33606cU,
  0x3e4475ccbbcd007cU, 0x3da24b0c3b08aafdU, 0xbdd9d083bdc03074U, 0x3d4475cc3e6d088fU,
  0x3e53687f3e5bf32fU, 0xbe6ae5e33e0acda9U, 0x3d9135adbe1e05b5U, 0x3e4475ccbe5bf32fU,
  0x3de6a08b3e39c870U, 0xbe157b053e0242f9U, 0x3b08aafdbd3beb1cU, 0xbe39c8703e625b33U,
  0xbe6ae5e33e0242f9U, 0x3e57add700000000U, 0xbe1358593e4addd0U, 0xbd957b053d5e15dbU,
  0xbe6f2b3bbe08aafdU, 0xbd2ad5bc3d224b0cU, 0xbe202860bdcd007cU, 0x3d88aafd3e39c870U,
  0x3df37093bdd58b2bU, 0x3d957b053e3beb1cU, 0xbe1be3093d558b2bU, 0x3dde15dbbe1e05b5U,
  0xbe45f2c23e0b3764U, 0xbde693be3e481fa0U, 0xbe45f2c2be43c5e5U, 0x3d0283eebe890a86U,
  0xbe43c5e5be75cdcdU, 0xbe52fff43e2e053dU, 0xbe0f911f3dbb126eU, 0xbd8283ee3d2551c7U,
  0xbde693be3d36b8b3U, 0xbe2e053dbe2551c7U, 0x3e1617b8bdef4734U, 0xbe325ef83da0f80cU,
  0x3e68c09bbde23a02U, 0x3d9844953db6b8b3U, 0xbe090a863e4a4c7dU, 0xbde693be3df3a0efU,
  0x3d86dda9be3f6c2aU, 0xbd0b37643e4ea638U, 0x3e600d25bd6aed79U, 0x3e29ab823de693beU,
  0xbe8a20f5be1c9e50U, 0xbe0f911fbda0f80cU, 0xbd86dda93e3f6c2aU, 0xbe277ea4be77faaaU,
  0x3e552cd1bcd0d316U, 0x3e04b0cbbc73a0efU, 0xbdf7faaa3bd0d316U, 0x3d8b3764bd481fa0U,
  0xbe4ea638be090a86U, 0x3cbf6c2abdbf6c2aU, 0xbd93eadabdfc5465U, 0x3e59868cbc73a0efU,
  0x3dc9e56bbcc9e56bU, 0xbd40b8153e43036aU, 0xbd8e3eba3e43036aU, 0xbdee9ac43db78abeU,
  0x3e19b766bcc9e56bU, 0xbe12d5653e378abeU, 0xbc378abebd5c4018U, 0x3e007ab83e1c02bbU,
  0x3e888264bdf3316fU, 0xbdd312c13d92d565U, 0x3e7a1370be49e56bU, 0x3e59f4c2be43036aU,
  0x3da9c6bdbd09a80fU, 0x3ca530123e051164U, 0x3d8511643e209966U, 0x3e075cb93dfc5ec6U,
  0x3d5c4018bcc9e56bU, 0xbe12d565be4e7c16U, 0x3b92d5653df3316fU, 0x3dae5d68be1c02bbU,
  0x3e2099663dce7c16U, 0x3e1e4e113c5c4018U, 0x3e5e8b6d3c92d565U, 0xbe176c10bc378abeU,
  0xbcb78abe3e29c6bdU, 0xbd656d6e3e555e17U, 0xbde0d6c33d40b815U, 0x3da53012be253012U,
  0xbe2c1212bbdc4018U, 0x3e2e5d68be108a0fU, 0xbdd312c1bd40b815U, 0x3e91afba3e09a80fU,
  0xbe5d6627bd32e887U, 0x3d981273be115ceeU, 0x3c0f206c3dc94598U, 0x3e3525093d062e65U,
  0x3db2e8873e6894b0U, 0xbe257d7d3e2c3302U, 0xbc32e8873dc05391U, 0x3bd6b0a23c56b0a2U,
  0xbcd6b0a23c32e887U, 0x3d7186b63e4dbe9bU, 0x3c7a78bd3d181273U, 0x3c7a78bdbdbbda8eU,
  0xbc8f206cbe32e887U, 0xbd7a78bdbd93996fU, 0xbe73c3383d181273U, 0x3e8e022b3e399e0cU,
  0x3da57d7d3e062e65U, 0xbd062e65be429013U, 0x3df186b6bd7a78bdU, 0x3e5fa2a9bcd6b0a2U,
  0x3b0f206cbd93996fU, 0x3ddfa2a9bd062e65U, 0xbd062e653d81b562U, 0xbe257d7dbe494598U,
  0xbda1047abe405391U, 0xbe1ec7f8bb0f206cU, 0x3e32e8873e21047aU, 0x3de894b0U,
  0x3e2c33023d56b0a2U, 0xbe61df2a3e5d6627U, 0xbc7a78bdbe2340fbU, 0xbe7186b63e898928U,
  0x3da01af33e56e0ccU, 0xbe352bf8be767a54U, 0xbdca3cfc3e04b806U, 0x3c6bf1d1be3fb47aU,
  0xbe767a543cb96292U, 0xbc4a3cfcbe6e0d1fU, 0x3e115bd5bd41cfc7U, 0xbe30f55d3e3310aaU,
  0x3c6bf1d13d06d353U, 0xbe1dffa5be85c5acU, 0xbd52aa323e2cbec2U, 0x3d9be458be1be458U,
  0xbe04b8063d0f4088U, 0xbc288828bb86d353U, 0xbe67bb373e288828U, 0x3d745f06be1be458U,
  0xbd6bf1d13dfccc3cU, 0x3dce7397be029cb8U, 0x3e06d353bc86d353U, 0xbdb962923ddb1767U,
  0xbe0f40883ca88828U, 0x3e19c90b3e4a3cfcU, 0xbd97adbd3d17adbdU, 0xbe4e7397be06d353U,
  0xbd0f40883c06d353U, 0x3d9be458be4a3cfcU, 0xbe2aa375be80816bU, 0x3e0f40883e41cfc7U,
  0xbc86d353be67bb37U, 0xbd30f55d3de3849cU, 0x3bca3cfc3e460662U, 0xbb06d3533d745f06U,
  0x3e27f128bd399ec0U, 0xbc0d6cc3bc30c7f4U, 0x3e5cf9f1be837b1dU, 0xbcf77e55bd6ea789U,
  0x3b8d6cc3bdf77e55U, 0xbda385c1be5cf9f1U, 0xbdfbe9bb3e27f128U, 0xbd4b4c58bd0d6cc3U,
  0x3d91d829bda7f128U, 0xbc777e55bd4b4c58U, 0xbe7312ef3e002a91U, 0xbd542324be21500eU,
  0x3b0d6cc3be11d829U, 0x3e21500e3c777e55U, 0xbe2385c1be2c5c8eU, 0xbe002a913e187942U,
  0xbe4d820b3ddcf9f1U, 0xbe1879423e542324U, 0xbe8c51e93e37690dU, 0xbc542324be44ab3fU,
  0x3e403fd93e542324U, 0xbe399ec0be5cf9f1U, 0x3dcb4c58be32fda7U, 0xbd27f1283d30c7f4U,
  0x3c777e55be2a26dbU, 0xbd1f1a5bbe1ce4a8U, 0xbd65d0bdbe0b3710U, 0xbe6ea789be5cf9f1U,
  0x3e3e0a263d27f128U, 0x3e16438fbe542324U, 0xbdac5c8ebcd42324U, 0x3dac5c8e3c9f1a5bU,
  0xbe3f745d3e389decU, 0x3d11dec1be166db7U, 0x3cff45d2be440353U, 0xbddf5d18bda8a98fU,
  0x3d1afcad3e663389U, 0x3e365671bb11dec1U, 0xbe89e492bd489249U, 0xbbdace223c7f45d2U,
  0x3e8d4fcbbda8a98fU, 0xbe1d44283c11dec1U, 0xbd7f45d2be89e492U, 0x3e3656713e6d09faU,
  0x3e6633893e90bb03U, 0x3dcd213f3e51b035U, 0x3dd63f2b3e5886a6U, 0x3e51b035bde87b04U,
  0x3e8e7388be0d4fcbU, 0x3e5ace22be0f9746U, 0xbdb656713d1afcadU, 0x3d3f745d3db65671U,
  0xbdbf745d3df198f0U, 0x3e879d173d8d4fcbU, 0x3dbf745dbe0d4fcbU, 0x3e41bbd83e7627e6U,
  0xbe340ef6bc11dec1U, 0x3ddf5d183dd1b035U, 0x3e73e06bbcff45d2U, 0xbc11dec1bb91dec1U,
  0x3dbf745d3e6f5175U, 0xbced09fabc5ace22U, 0xbb11dec1bd88c0d5U, 0xbe2af10a3bdace22U,
  0xbd8653c9be1d6a30U, 0x3ca7e8bbbd7377dcU, 0x3dcdb04c3c27e8bbU, 0xbd171e42bd5a4827U,
  0x3e51e2eabd0653c9U, 0x3e6094143dc11871U, 0xbe3eff223cfbdd19U, 0xbdda4827bd5a4827U,
  0xbd497dae3d9f837fU, 0x3e843a7abb8653c9U, 0xbe0eb906bd38b334U, 0x3d7377dc3dc97daeU,
  0xbe1504f33d9f837fU, 0xbdda48273e854721U, 0x3e27e8bbbd82212bU, 0xbdde7ac5be561588U,
  0xbc27e8bbbd497daeU, 0x3d0eb906bde2ad63U, 0x3e0653c93e51e2eaU, 0x3db48096bdde7ac5U,
  0xbe5a48273e5e7ac5U, 0x3d62ad633de2ad63U, 0x3c971e423ca7e8bbU, 0xbe1b50e0bd5a4827U,
  0xbe3699e53cb8b334U, 0xbe5c6176bdc54b0fU, 0x3e5e7ac5be348096U, 0x3d92eba43def453eU,
  0x3e6f453e3e47645eU, 0xbd1f837f3dda4827U, 0xbb8653c9be5e7ac5U, 0x3e4b96fd3e79c3caU,
  0xbe54ddf3bdce4891U, 0x3dc58165bd9e011eU, 0xbdfa2c6fbd6d01acU, 0xbe8b59df3e570fbeU,
  0xbdb3f30c3e411dcfU, 0xbe05dd64bd411dcfU, 0x3d411dcf3d9e011eU, 0xbe8a40fa3e570fbeU,
  0xbe54ddf3be7c5e3aU, 0xbdfa2c6f3e411dcfU, 0x3e49e4fb3d411dcfU, 0x3cf5c8d9be666c4bU,
  0x3c9e011e3d83ab99U, 0xbe28fa15bdbcba39U, 0xbe1bcf533d6d01acU, 0x3db3f30c3e507a5cU,
  0xbe7e9005bd26c84aU, 0x3e507a5cbcd2ac28U, 0xbdf165433dc9e4fbU, 0x3e3cba39bda264b4U,
  0xbe05dd643dc58165U, 0xbe5b73543e1e011eU, 0xbc8c72c53e33f30cU, 0x3e5b73543dfa2c6fU,
  0xbddfd6eabe643a80U, 0x3e3624d7bdc9e4fbU, 0xbe3eec043cc11dcfU, 0xbd26c84abe176bbcU,
  0x3da264b43de89e16U, 0x3d1539f1be5b7354U, 0x3cc11dcfbe176bbcU, 0xbbd2ac28be3cba39U,
  0xbe31713b3daa2671U, 0x3e00d3f63e8955e2U, 0x3e16b4553df7eedfU, 0x3e647cc33dc7519aU,
  0x3daa2671be081ec0U, 0xbe647cc3be881ec0U, 0x3b9b90dc3d2f02f8U, 0xbe5ac3b53e11d7ceU,
  0x3d8cfb47bbe9594aU, 0x3e11d7cebe144612U, 0xbe5378ebbdee35d1U, 0x3e16b4553d4c2e21U,
  0xbe4006d0be0f698bU, 0x3df31258bd081ec0U, 0xbe38bc053c1b90dcU, 0x3e31713b3e427513U,
  0x3caf02f8be3b2a49U, 0xbdfccb66bdee35d1U, 0xbc9b90dc3dc7519aU, 0x3c69594abe0cfb47U,
  0xbe2f02f83e38bc05U, 0x3e1dff1f00000000U, 0xbe03423abd427513U, 0x3e1446123e206d63U,
  0x3dd10aa83c881ec0U, 0x3e16b455be22dba6U, 0xbd38bc053e647cc3U, 0x3e83423abe85b07dU,
  0x3d427513bd081ec0U, 0xbe510aa8be3d988cU, 0xbe38bc05be9a59baU, 0xbe0a8d043e192299U,
  0xbcc03e20bc00296bU, 0xbda033c6bd60487bU, 0xbe3c3cd53e6e4d03U, 0x3dc43f6c3c2033c6U,
  0x3e323999be2c37a8U, 0x3d403e203e4c4203U, 0xbe022a113e00296bU, 0x3e6449c73cc03e20U,
  0x3e062b5c3e323999U, 0xbc2033c63e28365cU, 0x3e3239993d8c2d4dU, 0x3dc03e203c80296bU,
  0xbe50434ebdd0434eU, 0x3d78503fbdf8503fU, 0x3c60487bbe3e3d7bU, 0x3dd845e5be042ab6U,
  0x3e403e203d98312fU, 0xbe5444993d383b8aU, 0xbd842ab63e7a50e5U, 0x3e7c518b3e022a11U,
  0xbe56453f3e7e5230U, 0x3e403e20be243511U, 0x3e4840b73e664a6cU, 0x3d902e983e022a11U,
  0xbcc03e20bd704da9U, 0xbd80296bbdfc518bU, 0xbe142fe43e163089U, 0x3e7c518bbe28365cU,
  0xbe403e20bddc4730U, 0x3cd0434ebbc03e20U, 0x3c2033c6be5845e5U, 0xbcc03e203e3a3c2fU,
  0x3e83deb63dddd65bU, 0xbe279c453d13e43dU, 0xbdbb544d3e8c7f3aU, 0xbd3178493e2f0148U,
  0xbe1b49403e453051U, 0xbd93e43dbd3b544dU, 0x3b1dc041bc6ca062U, 0xbb1dc041be18d23fU,
  0x3d3b544d3e82a336U, 0xbd8a08393e53fa57U, 0xbdb17849bd93e43dU, 0x3deca062U,
  0x3da2ae43U, 0x3ceca062be5dd65bU, 0x3e740565bd767c66U, 0xbdac8a473e0ef63bU,
  0x3e7405653d767c66U, 0x3e6a29603dbb544dU, 0x3e0c7f3a3e718e64U, 0x3e7de169be3b544dU,
  0x3d98d23f3e802c35U, 0xbe3b544d3e2a1346U, 0xbe4530513e33ef4aU, 0xbc4530513e67b25fU,
  0x3e92a8bc3df67c66U, 0xbdc0424f3e2f0148U, 0x3e7405653e9c84c0U, 0xbe4530513cd8e859U,
  0x3d3b544dbd317849U, 0xbc6ca062bde2c45dU, 0xbe02a3363c9dc041U, 0x3e252544be079138U,
  0x3e4ab56fbdf3401eU, 0xbd1808133d83c2bbU, 0xbde91d733cb67017U, 0x3df851743e59e971U,
  0xbe1808133e8a1867U, 0xbe013a10be864b66U, 0xbd8de567bd8de567U, 0xbd5efac73e73401eU,
  0xbd222abfbc4ab56fU, 0x3e9a90bebe4d3e1aU, 0x3e5efac7bd0de567U, 0xbd222abf3d0de567U,
  0x3e640c1d3dc5a419U, 0xbccab56f3e12f6bdU, 0xbe4092c33e864b66U, 0x3e8a18673df3401eU,
  0x3d9808133e8b5cbcU, 0x3e315ec13cb67017U, 0xbe4fc6c53d367017U, 0xbdb15ec13e431b6eU,
  0x3d367017bdb67017U, 0xbd73401e3dfd62caU, 0xbd83c2bb3d9d1969U, 0x3e157f68bdcfc6c5U,
  0xbe0de567be367017U, 0x3e8ca1123c4ab56fU, 0xbdcab56f3de91d73U, 0xbca22abfbe4d3e1aU,
  0xbe6183723db15ec1U, 0xbcf3401e3d03c2bbU, 0x3e3e0a18bca22abfU, 0xbe59e9713ea0e66aU,
  0x3c3a298c3ddabd9fU, 0xbe3c7d45bda78bcbU, 0x3e81266d3e85cdddU, 0xbc5f650fbd9e3cebU,
  0xbd7b51b1be3a298cU, 0x3d30daac3cf202d0U, 0x3e7ff9213dc81fddU, 0x3df202d03e56162eU,
  0x3e2538133d7202d0U, 0xbe4f1b063e025049U, 0xbe22e45b3e10469aU, 0xbdb5821cbe84a401U,
  0xbe37d5d43dbed0fdU, 0x3e8f1cbebd14ee0aU, 0xbe4cc74ebcf202d0U, 0x3e30daac3e29df83U,
  0x3bdf650f3e37d5d4U, 0xbe93c42e3d825049U, 0x3d7b51b1bd278bcbU, 0x3df202d0be37d5d4U,
  0x3e8f1cbe3d43786dU, 0x3da78bcbbd3a298cU, 0x3c5f650fbddabd9fU, 0xbc5f650f3e29df83U,
  0xbc94ee0abb94ee0aU, 0x3d0b9f293e6d5b60U, 0xbd5f650f3e837a25U, 0xbda78bcb3e129a52U,
  0x3e4cc74ebc825049U, 0xbe1e3ceb3dccc74eU, 0xbdba298c3e666037U, 0xbcccc74ebdccc74eU,
  0x3e0d410a3d8d410aU, 0xbde3d441bdb64368U, 0xbdd628cd3e487d58U, 0x3e63d441bcb64368U,
  0x3e618d03bdc3eedcU, 0x3e0f88483da897f3U, 0x3e760e32bdb1b4ebU, 0x3ca40977be0af9ccU,
  0x3d63d441bdd628cdU, 0x3e1aec7e3e1d33bcU, 0xbd3643683d3f6060U, 0x3e90abe7be08b28eU,
  0xbd1aec7e3decf13aU, 0x3e6cf13abe80b934U, 0x3e066b503df17fb6U, 0xbe3f60603e519a51U,
  0x3e1aec7ebdad266fU, 0x3e3643683e4d0bd4U, 0xbe11cf863d63d441U, 0xbe2adf313e81dcd3U,
  0x3e6f38783e1f7afbU, 0x3e21c2393dc3eedcU, 0x3d760e3200000000U, 0x3e519a513d8d410aU,
  0x3e3ad1e4bdd19a51U, 0x3e6f3878bd364368U, 0xbdbf6060bdbf6060U, 0xbe58700b3e81dcd3U,
  0x3cc87d58bdc3eedcU, 0x3cff2b2abc91cf86U, 0xbda897f33e80b934U, 0x3e2d266fbe3f6060U,
  0x3e9af1b9bd19a9e8U, 0x3d052cdabe7d8b8cU, 0x3e734d05bd2e26f6U, 0x3e815568bd19a9e8U,
  0x3e1c398abd948aa5U, 0x3e786c483e90b332U, 0x3ca3e86f3ea2a09eU, 0x3d0f6b613e5ecff7U,
  0xbe0f6b613e029d38U, 0xbd948aa53e6e2dc1U, 0x3e6b9e20bd23e86fU, 0xbe2b9754U,
  0xbdeb9e20bd38657dU, 0x3e63ef3a3e11fb03U, 0x3e267811be0a4c1eU, 0x3e171a463d19a9e8U,
  0xbccce28b3e30b698U, 0xbe572112be334639U, 0x3d572112bd23e86fU, 0x3e6e2dc13de67edcU,
  0xbba3e86f3e2158cdU, 0x3e2158cdbe35d5dbU, 0xbd800d97be7afbeaU, 0x3db8657d3df0bd63U,
  0x3e0f6b613e87bc7cU, 0xbe2b9754be334639U, 0xbdb8657d3e8a4c1eU, 0x3da3e86f3d4ce28bU,
  0xbcf5dca6be23e86fU, 0x3dae26f63e029d38U, 0xbe1c398a3e95d275U, 0x3e2e26f6be87bc7cU,
  0x3e25177e3e4c663aU, 0x3d9d3af23e71161dU, 0xbda278a4bd8d81d9U, 0x3e693991bd3231bcU,
  0xbd5c1f52bdc72887U, 0xbce69ab83e8455e1U, 0x3e955e653df1161dU, 0xbd97fd3f3e12bf8cU,
  0x3e49c7613e376f6fU, 0x3e2f92e3bdb231bcU, 0x3ea666eabe25177eU, 0xbe4728873e5ebe2cU,
  0xbd830674bd8d81d9U, 0xbe3231bcbe5ebe2cU, 0x3e376f6f3ba7b657U, 0xbe0d81d9be17fd3fU,
  0x3e2278a4bce69ab8U, 0x3de69ab83e8c326dU, 0x3d97fd3fbe4489aeU, 0x3c51a3edbd12bf8cU,
  0x3e3a0e493e17fd3fU, 0xbe25177ebe3cad22U, 0xbe669ab8bdacf40aU, 0x3e51a3edbe0ae300U,
  0xbd7b9182be27b657U, 0x3dd1a3ed3e81b707U, 0xbdacf40a3dd1a3edU, 0x3e2278a43dd1a3edU,
  0xbe0d81d9bd5c1f52U, 0x3e6bd86abca7b657U, 0xbe7b91823ea12938U, 0xbba7b6573e8ae300U,
  0x3e7f892c3e8bbf04U, 0xbe1510053e926697U, 0x3d3fa6e13dbfa6e1U, 0x3d2a5b73bd2a5b73U,
  0x3e6ce72c3e0a6a4dU, 0x3e723a083db5012aU, 0xbe151005be4f9f74U, 0x3e2fae4f3e3a5406U,
  0x3d6a3dbebdca4c99U, 0x3ea906bcbe151005U, 0xbdafae4fbe0d13bbU, 0xbdcf9f743e6f909aU,
  0xbe0a6a4dbe1a62e0U, 0x3d9fb5bc3e9664bcU, 0x3baa5b73be42504fU, 0xbd9a62e0be250897U,
  0xbd951005be051772U, 0xbe225f2a3c951005U, 0xbe47a32b3d8fbd29U, 0xbd4a4c993b2a5b73U,
  0xbcaa5b733e27b205U, 0x3d3fa6e13e8a6a4dU, 0x3e826e043dcf9f74U, 0xbe3fa6e1bdef909aU,
  0x3d851772be051772U, 0xbd3fa6e1bd9fb5bcU, 0x3e4cf6063def909aU, 0x3e9111e03e723a08U,
  0x3e826e04bdd4f250U, 0x3e225f2abdea3dbeU, 0x3dbfa6e1bc54f250U, 0x3e926697bcbfa6e1U,
  0x3da760283d4c8338U, 0x3dad5a6f3daff993U, 0x3d3df1f33d60ffecU, 0xbbf8b15a3d321c4bU,
  0xbcd829abbbe5e1edU, 0xbb3c90853bb840eeU, 0xb9f264843d806f20U, 0xbcf6373c3d547abeU,
  0xbcb87b4d3d9b8b35U, 0xbd177775bd016c7bU, 0xbc9eccd43d19e067U, 0xbcce4b97bd1f4fc4U,
  0x3d4bd6163cbfedfbU, 0x3d94abbb3d3a6624U, 0x3d9405013dafd938U, 0x3d90cb193d417e81U,
  0x3ea4398f3eb950aeU, 0xbe1a5e9a3e8aa790U, 0x3e8b80a73dd9ef21U, 0x3ecb187d3eb98cd1U,
  0x3dbabf413eb7db46U, 0xbdc8b46ebe0d79c6U, 0xbd9ec0323d91d883U, 0xbe8ea8113e502abaU,
  0xbe09c2163cbc7201U, 0xbea0df853ea2d63aU, 0x3e6525c23ca0f737U, 0x3e97ddc63db54b0aU,
  0x3d85cb1bbdd45ec6U, 0xbe3cf879be7016d7U, 0xbe74d94dbe6f6931U, 0x3bf49a22bd9cf1faU,
  0xbe030e193d8f924bU, 0xbec007d13e96510cU, 0x3de4dcf6be85225cU, 0x3ec79e60bbfb9d94U,
  0x3e9d4d2fbe065570U, 0x3e1f6ae9be81609aU, 0x3ebd4a3cbe3d1324U, 0x3ea5abe33e5ca162U,
  0xbd99da2fbebac956U, 0x3c1f0dbcbe884cf2U, 0x3e8bd1d6be6c2c70U, 0xbe4917133e3590dbU,
  0x3d45a7443e91681fU, 0x3e589b713cc87878U, 0xbeb33e2b3e9012dbU, 0xbe8a54c53d0316f6U,
  0x3dd018dabe946e36U, 0x3ed253983e5c6198U, 0x3e4d0108be042a35U, 0xbe98aa6fbdc519c3U,
  0xbe3cbcc9bd8de87eU, 0x3dec106a3e2822e2U, 0xbe855fae3d30b2ddU, 0x3e07c5a9bd9844adU,
  0x3dc3a0ed3dbe6b35U, 0xbc42d5f0be33f384U, 0x3e29372bbeaebb29U, 0xbe7a1c87bd2c711bU,
  0x3e8d351cbe119bb1U, 0x3e8a83913e6ff38dU, 0x3e4c5e1b3e6878feU, 0x3ea668e2bd8096ebU,
  0x3e7e85aebccf76c8U, 0xbe750633bdab0593U, 0xbe6eb2cf3df05a29U, 0x3cb7d31f3ede9f22U,
  0x3e9a19afbdf7be88U, 0x3dd2fe193e14feffU, 0x3e96e74ebeb27144U, 0x3e82e5133e6fca86U,
  0x3eac190a3d8e7d66U, 0xbe257ed9be970ff9U, 0x3dfd4c773e4e3493U, 0x3c2da413beaac2b5U,
  0x3d73927dbe3c5767U, 0xbea62d613cf6585dU, 0xbe9c5b8d3ccb2690U, 0x3edee351bca32321U,
  0x3e8254963e3729ddU, 0x3da3f3e8be99e311U, 0x3e89327c3dd441c5U, 0xbc9e9a58be8bb741U,
  0xbeb0e05abe088508U, 0x3e99b0673dc44cc4U, 0x3e3b9354bd9039cdU, 0xbe1a7a723e837b10U,
  0x3e8f17e13e3c33e8U, 0xbe0aa52ebe3a38fbU, 0xbe5255363e60bd9dU, 0x3c9951dfbc876fbeU,
  0x3e8575183e5e7a4bU, 0xbeaaaedcbe8fd4cbU, 0xbde4282abe152fffU, 0xbe4edb063e50c2a5U,
  0x3e827e5d3d6665faU, 0x3ecc2b373e980ff9U, 0xbea5eef03ed19c6bU, 0xbebaaf3e3d432e10U,
  0x3eaaba2bbe7690a1U, 0xbe64764abe3b7b2eU, 0xbdaea3763d966784U, 0xbe90ec76bcafb5e2U,
  0xbd94f16e3eca0386U, 0xbde8c0ab3def75e0U, 0xbd0dea363de475f9U, 0xbe88d6fe3d847723U,
  0x3ec58a63bda94ad8U, 0xbe14dc50bebfef02U, 0x3e9ee48e3ed68e34U, 0xbde1afa13e4e0adbU,
  0xbe535a4a3db1e2b9U, 0x3e2988d0bde44481U, 0x3ca7de043dd06f86U, 0xbe2f63b73eb54521U,
  0x3e2633e33dbaa564U, 0x3dcf61953e76c362U, 0x3de41ed63e88358dU, 0x3d76bd9d3c1f6690U,
  0x3e71c1233dffcf5dU, 0xbdda3c013e94f9bcU, 0x3ea6abd03ea5f44dU, 0x3dcb7ad4be711b11U,
  0xbd892fd83e865136U, 0xbe9f5dc93d10e901U, 0xbe62409fbe9e3ee3U, 0x3e873f693e49b735U,
  0xbb8c2c643dfaa8ceU, 0x3da6aaddbe8813acU, 0x3e9e76f5beae4921U, 0xbe417bc53e875ea8U,
  0x3e30cac93dde98e4U, 0xbdcf94a73e8aa2feU, 0xbe7703e8be344ec6U, 0xbe3d7eacbd0132f4U,
  0x3e522d4b3d9be32fU, 0xbdaa013e3e3ec271U, 0x3e2d048e3ecebe38U, 0xbd2d9a3f3e29fdf2U,
  0xbe278a97bdb8bf41U, 0xbe621a683eb61270U, 0x3db7f0fe3e11ca24U, 0xbe420c013e5b351eU,
  0xbd8f9150be177454U, 0x3e364c123e57cd65U, 0x3e49e7bcbd6af79fU, 0xbe92214bbe4b0adaU,
  0x3ea2af10be426b8dU, 0xbea453f3be979d96U, 0xbdb24dd4bd6f07b9U, 0xbdebf14ebe82cca5U,
  0x3eaa0ebbbe8f7340U, 0xbcbbb33f3d721d81U, 0x3e4ae57ebe78d81eU, 0x3b4d682ebe0faf1cU,
  0xbd63f8c5bec5aca7U, 0x3e870f513ec0e9a7U, 0xbe3b26afbe90602eU, 0xbe92b143be2f4409U,
  0x3e137f0cbe42c319U, 0x3def4e7fbeacb81fU, 0xbe70c505be186693U, 0x3e9a2ac5be4faac4U,
  0x3d6afddc3e8be339U, 0x3d6e5aaebe289ea1U, 0x3e5d975bbeac6429U, 0x3e93e79abeab3800U,
  0xbd020fc13d374934U, 0xbe114e6a3e1b28c5U, 0xbeb95e6abde2f434U, 0xbea64f483d79970eU,
  0x3c3f1913beaed07cU, 0xbea752d3bead5e89U, 0x3e66992dbeae5fc3U, 0xbe2f5664bd8a1168U,
  0x3ea41bf33dba3f43U, 0x3e138c42be1947d1U, 0xbe3f2e40bd8a1c83U, 0xbe6c33833d17be10U,
  0xbe0ecd95be214516U, 0x3e8ef63cbe495d07U, 0x3e16423f3d4494b4U, 0x3e63bbd23e35e601U,
  0x3dd385abbe53d665U, 0x3db8df29be7307d4U, 0xbe47563dbe8a6804U, 0xbe2264c5be4b213fU,
  0xbe30ff083e91e927U, 0x3ec8eacebde32b66U, 0x3ed7a7d93e875148U, 0x3e29d0863e16269cU,
  0x3d5c90ce3e950c85U, 0x3dd9e98bbd92c477U, 0xbd7f799c3d45d6deU, 0xbd92474f3eab38e5U,
  0xbe5ca04c3e0b98b4U, 0x3e164f323df261a4U, 0x3eaac108be1c3783U, 0xbe7be5ec3e101005U,
  0xbe7b4a0c3e59249bU, 0x3d24284dbea3bb76U, 0xbe2fb72a3ddd61e9U, 0xbe7d7e55bcf88e86U,
  0xbe5f96113d1578ebU, 0x3d0a2df73ecf6ab0U, 0xbeb4031d3dbf3644U, 0x3e9841e4be7f750aU,
  0xbdf27e573e1b6d5aU, 0xbe8c6d8b3d36bcf4U, 0x3ed6e1b6bbb9dc38U, 0x3c5d536d3ebaac91U,
  0x3e91b3c13e6d2800U, 0xbea9e9253d3aa5ebU, 0x3e3d4cccbd4f69ddU, 0xbcf67fadbd72b48dU,
  0x3e9c1b1fbe46245dU, 0xbe0ed58c3e9ce4adU, 0xbe4f9488be019390U, 0xbe2f547c3e909919U,
  0x3e2d7674be70e0f5U, 0xbe27462c3ed0253fU, 0x3e6244e03dc0c031U, 0x3ea9af4ebd51b1a2U,
  0x3e773d2b3e8876d6U, 0xbdf8d219ba70441aU, 0x3e1cb93abe8aa6cfU, 0x3dc03c32be1a5baeU,
  0xbc099036bbe2d9e7U, 0x3e7a94e93eb15bf7U, 0x3db9a9f3be91109fU, 0x3e58ebbc3d5a4561U,
  0x3e8cb976bdeccaf4U, 0xbdb92f303dd24a3cU, 0xbd3f2a173e5021c9U, 0x3dbf8469be3ad879U,
  0x3e8f38b33d5778a2U, 0xbd90c8993e1928b1U, 0xbe9eeed1bd1a2de4U, 0x3eb835753dd8ad57U,
  0x3d06d032be9a6779U, 0xbd879bd33e1f62feU, 0xbe391b0cbddf8623U, 0xbdbfe58bbd0df11dU,
  0x3e435daebe0bb257U, 0xbd81d791bdb03832U, 0xbe3b7a37be2be381U, 0xbe927143beb015c4U,
  0x3bcbaa80be6c31dfU, 0x3cf63401be7f6a5dU, 0x3ca3515dbea6b8b9U, 0x3e725ab5bea69941U,
  0xbe8b640cbea97874U, 0xbd30f61dbdadbae1U, 0xbea3476d3e2e4b35U, 0xbea835a93d2cad75U,
  0xbd2603023ec45e3bU, 0xbd572975be7bc1a1U, 0xbdfc4a66be82d76aU, 0x3ddbf8d13e4d472bU,
  0x3d24c3ac3eb61d75U, 0xbeb0e020be73c503U, 0xbdb6aa6abe4069b1U, 0xbc800a3e3e9b222bU,
  0xbb8607953e8df2c4U, 0x3d4b332fbde5ce6aU, 0x3d3ef36d3ecabf1dU, 0xbe6c3c333e9c615dU,
  0x3d967764be49b3a5U, 0xbdc804ebbdfbad62U, 0x3e3f59c63e20e2a8U, 0x3c8acfbebe1900bfU,
  0xbd1d7f4f3bd02edcU, 0x3be158403da4a43bU, 0x3d9ac835bd4279e7U, 0xbd16b313bcb15f1eU,
  0xbd4edc3fbd47ab5cU, 0x3bee77203d9dac9aU, 0xbc15b3cebd276ce6U, 0xbd4f54c2bd0878dcU,
  0x3d8792463eae7531U, 0x3dadd92bbeffde48U, 0xbf0b29fc3cb5a3a8U, 0x3e92d4e73e3d4f07U,
  0x3ec078d23e8312c7U, 0x3f057416bebe9a49U, 0x3f2240d03d841ee4U, 0x3e930f013bc311bbU,
  0xbd848666U,
};


ai_handle g_network_weights_table[1 + 2] = {
  AI_HANDLE_PTR(AI_MAGIC_MARKER),
  AI_HANDLE_PTR(s_network_weights_array_u64),
  AI_HANDLE_PTR(AI_MAGIC_MARKER),
};

